unsigned char model_data_tflite[] = {
  0x1c, 0x00, 0x00, 0x00, 0x54, 0x46, 0x4c, 0x33, 0x14, 0x00, 0x20, 0x00,
  0x04, 0x00, 0x08, 0x00, 0x0c, 0x00, 0x10, 0x00, 0x14, 0x00, 0x00, 0x00,
  0x18, 0x00, 0x1c, 0x00, 0x14, 0x00, 0x00, 0x00, 0x03, 0x00, 0x00, 0x00,
  0x18, 0x00, 0x00, 0x00, 0x34, 0x00, 0x00, 0x00, 0xdc, 0x00, 0x00, 0x00,
  0x34, 0x00, 0x00, 0x00, 0x84, 0x00, 0x00, 0x00, 0x7c, 0x00, 0x00, 0x00,
  0x07, 0x00, 0x00, 0x00, 0xc4, 0x08, 0x00, 0x00, 0xb0, 0x07, 0x00, 0x00,
  0xb0, 0x06, 0x00, 0x00, 0xc4, 0x03, 0x00, 0x00, 0xec, 0x02, 0x00, 0x00,
  0x30, 0x02, 0x00, 0x00, 0x98, 0x01, 0x00, 0x00, 0x01, 0x00, 0x00, 0x00,
  0xcc, 0x00, 0x00, 0x00, 0x13, 0x00, 0x00, 0x00, 0x54, 0x1b, 0x00, 0x00,
  0x50, 0x1b, 0x00, 0x00, 0x5c, 0x1a, 0x00, 0x00, 0x80, 0x18, 0x00, 0x00,
  0x58, 0x17, 0x00, 0x00, 0x8c, 0x0e, 0x00, 0x00, 0x4c, 0x0d, 0x00, 0x00,
  0xa8, 0x09, 0x00, 0x00, 0x18, 0x09, 0x00, 0x00, 0x30, 0x1b, 0x00, 0x00,
  0x2c, 0x1b, 0x00, 0x00, 0x28, 0x1b, 0x00, 0x00, 0x24, 0x1b, 0x00, 0x00,
  0x20, 0x1b, 0x00, 0x00, 0x1c, 0x1b, 0x00, 0x00, 0x18, 0x1b, 0x00, 0x00,
  0x14, 0x1b, 0x00, 0x00, 0x10, 0x1b, 0x00, 0x00, 0x3c, 0x00, 0x00, 0x00,
  0x00, 0x00, 0x00, 0x00, 0x01, 0x00, 0x00, 0x00, 0x0c, 0x00, 0x00, 0x00,
  0x08, 0x00, 0x0c, 0x00, 0x04, 0x00, 0x08, 0x00, 0x08, 0x00, 0x00, 0x00,
  0x08, 0x00, 0x00, 0x00, 0x12, 0x00, 0x00, 0x00, 0x13, 0x00, 0x00, 0x00,
  0x6d, 0x69, 0x6e, 0x5f, 0x72, 0x75, 0x6e, 0x74, 0x69, 0x6d, 0x65, 0x5f,
  0x76, 0x65, 0x72, 0x73, 0x69, 0x6f, 0x6e, 0x00, 0x26, 0xe6, 0xff, 0xff,
  0x04, 0x00, 0x00, 0x00, 0x10, 0x00, 0x00, 0x00, 0x31, 0x2e, 0x31, 0x34,
  0x2e, 0x30, 0x00, 0x00, 0x00, 0x00, 0x00, 0x00, 0x00, 0x00, 0x00, 0x00,
  0x0f, 0x00, 0x00, 0x00, 0x4d, 0x4c, 0x49, 0x52, 0x20, 0x43, 0x6f, 0x6e,
  0x76, 0x65, 0x72, 0x74, 0x65, 0x64, 0x2e, 0x00, 0x00, 0x00, 0x0e, 0x00,
  0x18, 0x00, 0x04, 0x00, 0x08, 0x00, 0x0c, 0x00, 0x10, 0x00, 0x14, 0x00,
  0x0e, 0x00, 0x00, 0x00, 0x14, 0x00, 0x00, 0x00, 0x58, 0x00, 0x00, 0x00,
  0x5c, 0x00, 0x00, 0x00, 0x60, 0x00, 0x00, 0x00, 0x84, 0x00, 0x00, 0x00,
  0x11, 0x00, 0x00, 0x00, 0x04, 0x1a, 0x00, 0x00, 0xa4, 0x19, 0x00, 0x00,
  0x94, 0x18, 0x00, 0x00, 0xac, 0x16, 0x00, 0x00, 0xa8, 0x15, 0x00, 0x00,
  0xa0, 0x0c, 0x00, 0x00, 0x04, 0x0c, 0x00, 0x00, 0x70, 0x08, 0x00, 0x00,
  0xc0, 0x07, 0x00, 0x00, 0x98, 0x06, 0x00, 0x00, 0x98, 0x05, 0x00, 0x00,
  0x38, 0x04, 0x00, 0x00, 0x60, 0x03, 0x00, 0x00, 0xa4, 0x02, 0x00, 0x00,
  0xcc, 0x01, 0x00, 0x00, 0x10, 0x01, 0x00, 0x00, 0x78, 0x00, 0x00, 0x00,
  0x01, 0x00, 0x00, 0x00, 0x00, 0x00, 0x00, 0x00, 0x01, 0x00, 0x00, 0x00,
  0x10, 0x00, 0x00, 0x00, 0x09, 0x00, 0x00, 0x00, 0x3c, 0x07, 0x00, 0x00,
  0x04, 0x06, 0x00, 0x00, 0x00, 0x05, 0x00, 0x00, 0xc0, 0x03, 0x00, 0x00,
  0xe8, 0x02, 0x00, 0x00, 0x38, 0x02, 0x00, 0x00, 0x50, 0x01, 0x00, 0x00,
  0x98, 0x00, 0x00, 0x00, 0x10, 0x00, 0x00, 0x00, 0x04, 0x00, 0x00, 0x00,
  0x6d, 0x61, 0x69, 0x6e, 0x00, 0x00, 0x00, 0x00, 0xee, 0xfd, 0xff, 0xff,
  0x06, 0x00, 0x00, 0x00, 0x10, 0x00, 0x00, 0x00, 0x04, 0x00, 0x00, 0x00,
  0x01, 0x00, 0x00, 0x00, 0x10, 0x00, 0x00, 0x00, 0x01, 0x00, 0x00, 0x00,
  0x0f, 0x00, 0x00, 0x00, 0xf8, 0xf8, 0xff, 0xff, 0x06, 0x00, 0x00, 0x00,
  0x00, 0x00, 0x00, 0x06, 0x02, 0x00, 0x00, 0x00, 0xc8, 0xe6, 0xff, 0xff,
  0x14, 0x00, 0x00, 0x00, 0x11, 0x00, 0x00, 0x00, 0x18, 0x00, 0x00, 0x00,
  0x40, 0x00, 0x00, 0x00, 0x30, 0x00, 0x00, 0x00, 0x02, 0x00, 0x00, 0x00,
  0x01, 0x00, 0x00, 0x00, 0x0a, 0x00, 0x00, 0x00, 0x19, 0x00, 0x00, 0x00,
  0x53, 0x74, 0x61, 0x74, 0x65, 0x66, 0x75, 0x6c, 0x50, 0x61, 0x72, 0x74,
  0x69, 0x74, 0x69, 0x6f, 0x6e, 0x65, 0x64, 0x43, 0x61, 0x6c, 0x6c, 0x3a,
  0x30, 0x00, 0x00, 0x00, 0x02, 0x00, 0x00, 0x00, 0xff, 0xff, 0xff, 0xff,
  0x0a, 0x00, 0x00, 0x00, 0x98, 0xe6, 0xff, 0xff, 0xba, 0xfa, 0xff, 0xff,
  0x00, 0x00, 0x00, 0x09, 0x05, 0x00, 0x00, 0x00, 0x1c, 0x00, 0x00, 0x00,
  0x10, 0x00, 0x00, 0x00, 0x04, 0x00, 0x00, 0x00, 0xa6, 0xe7, 0xff, 0xff,
  0x00, 0x00, 0x80, 0x3f, 0x01, 0x00, 0x00, 0x00, 0x0f, 0x00, 0x00, 0x00,
  0x01, 0x00, 0x00, 0x00, 0x0e, 0x00, 0x00, 0x00, 0x8c, 0xf9, 0xff, 0xff,
  0x19, 0x00, 0x00, 0x00, 0x00, 0x00, 0x00, 0x19, 0x02, 0x00, 0x00, 0x00,
  0x80, 0xf9, 0xff, 0xff, 0x00, 0x00, 0x00, 0x09, 0x14, 0x00, 0x00, 0x00,
  0x10, 0x00, 0x00, 0x00, 0x18, 0x00, 0x00, 0x00, 0x40, 0x00, 0x00, 0x00,
  0x30, 0x00, 0x00, 0x00, 0x02, 0x00, 0x00, 0x00, 0x01, 0x00, 0x00, 0x00,
  0x0a, 0x00, 0x00, 0x00, 0x1a, 0x00, 0x00, 0x00, 0x53, 0x74, 0x61, 0x74,
  0x65, 0x66, 0x75, 0x6c, 0x50, 0x61, 0x72, 0x74, 0x69, 0x74, 0x69, 0x6f,
  0x6e, 0x65, 0x64, 0x43, 0x61, 0x6c, 0x6c, 0x3a, 0x30, 0x31, 0x00, 0x00,
  0x02, 0x00, 0x00, 0x00, 0xff, 0xff, 0xff, 0xff, 0x0a, 0x00, 0x00, 0x00,
  0xb4, 0xe8, 0xff, 0xff, 0x08, 0x00, 0x00, 0x00, 0x0c, 0x00, 0x00, 0x00,
  0x01, 0x00, 0x00, 0x00, 0x00, 0x00, 0x80, 0x3b, 0x01, 0x00, 0x00, 0x00,
  0x80, 0xff, 0xff, 0xff, 0xff, 0xff, 0xff, 0xff, 0x6e, 0xfb, 0xff, 0xff,
  0x00, 0x00, 0x00, 0x08, 0x04, 0x00, 0x00, 0x00, 0x18, 0x00, 0x00, 0x00,
  0x0c, 0x00, 0x00, 0x00, 0x04, 0x00, 0x00, 0x00, 0x68, 0xe7, 0xff, 0xff,
  0x01, 0x00, 0x00, 0x00, 0x0e, 0x00, 0x00, 0x00, 0x03, 0x00, 0x00, 0x00,
  0x0d, 0x00, 0x00, 0x00, 0x06, 0x00, 0x00, 0x00, 0x07, 0x00, 0x00, 0x00,
  0x44, 0xfa, 0xff, 0xff, 0x09, 0x00, 0x00, 0x00, 0x00, 0x00, 0x00, 0x09,
  0x04, 0x00, 0x00, 0x00, 0x38, 0xfa, 0xff, 0xff, 0x00, 0x00, 0x00, 0x09,
  0x14, 0x00, 0x00, 0x00, 0x0f, 0x00, 0x00, 0x00, 0x18, 0x00, 0x00, 0x00,
  0x60, 0x00, 0x00, 0x00, 0x50, 0x00, 0x00, 0x00, 0x02, 0x00, 0x00, 0x00,
  0x01, 0x00, 0x00, 0x00, 0x0a, 0x00, 0x00, 0x00, 0x38, 0x00, 0x00, 0x00,
  0x73, 0x65, 0x71, 0x75, 0x65, 0x6e, 0x74, 0x69, 0x61, 0x6c, 0x5f, 0x32,
  0x2f, 0x64, 0x65, 0x6e, 0x73, 0x65, 0x5f, 0x31, 0x2f, 0x4d, 0x61, 0x74,
  0x4d, 0x75, 0x6c, 0x3b, 0x73, 0x65, 0x71, 0x75, 0x65, 0x6e, 0x74, 0x69,
  0x61, 0x6c, 0x5f, 0x32, 0x2f, 0x64, 0x65, 0x6e, 0x73, 0x65, 0x5f, 0x31,
  0x2f, 0x42, 0x69, 0x61, 0x73, 0x41, 0x64, 0x64, 0x00, 0x00, 0x00, 0x00,
  0x02, 0x00, 0x00, 0x00, 0xff, 0xff, 0xff, 0xff, 0x0a, 0x00, 0x00, 0x00,
  0x8c, 0xe9, 0xff, 0xff, 0x08, 0x00, 0x00, 0x00, 0x0c, 0x00, 0x00, 0x00,
  0x01, 0x00, 0x00, 0x00, 0xe8, 0xa7, 0x96, 0x3e, 0x01, 0x00, 0x00, 0x00,
  0x18, 0x00, 0x00, 0x00, 0x00, 0x00, 0x00, 0x00, 0x00, 0x00, 0x0a, 0x00,
  0x10, 0x00, 0x04, 0x00, 0x08, 0x00, 0x0c, 0x00, 0x0a, 0x00, 0x00, 0x00,
  0x03, 0x00, 0x00, 0x00, 0x10, 0x00, 0x00, 0x00, 0x04, 0x00, 0x00, 0x00,
  0x01, 0x00, 0x00, 0x00, 0x0d, 0x00, 0x00, 0x00, 0x02, 0x00, 0x00, 0x00,
  0x0c, 0x00, 0x00, 0x00, 0x01, 0x00, 0x00, 0x00, 0x18, 0xfb, 0xff, 0xff,
  0x16, 0x00, 0x00, 0x00, 0x00, 0x00, 0x00, 0x16, 0x01, 0x00, 0x00, 0x00,
  0x0c, 0xfb, 0xff, 0xff, 0x00, 0x00, 0x00, 0x09, 0x14, 0x00, 0x00, 0x00,
  0x0e, 0x00, 0x00, 0x00, 0x18, 0x00, 0x00, 0x00, 0x44, 0x00, 0x00, 0x00,
  0x34, 0x00, 0x00, 0x00, 0x02, 0x00, 0x00, 0x00, 0x01, 0x00, 0x00, 0x00,
  0x51, 0x00, 0x00, 0x00, 0x1e, 0x00, 0x00, 0x00, 0x73, 0x65, 0x71, 0x75,
  0x65, 0x6e, 0x74, 0x69, 0x61, 0x6c, 0x5f, 0x32, 0x2f, 0x66, 0x6c, 0x61,
  0x74, 0x74, 0x65, 0x6e, 0x5f, 0x31, 0x2f, 0x52, 0x65, 0x73, 0x68, 0x61,
  0x70, 0x65, 0x00, 0x00, 0x02, 0x00, 0x00, 0x00, 0xff, 0xff, 0xff, 0xff,
  0x51, 0x00, 0x00, 0x00, 0x44, 0xea, 0xff, 0xff, 0x08, 0x00, 0x00, 0x00,
  0x0c, 0x00, 0x00, 0x00, 0x01, 0x00, 0x00, 0x00, 0xbb, 0x34, 0xa2, 0x3d,
  0x01, 0x00, 0x00, 0x00, 0x80, 0xff, 0xff, 0xff, 0xff, 0xff, 0xff, 0xff,
  0xfe, 0xfc, 0xff, 0xff, 0x00, 0x00, 0x00, 0x05, 0x02, 0x00, 0x00, 0x00,
  0x2c, 0x00, 0x00, 0x00, 0x20, 0x00, 0x00, 0x00, 0x04, 0x00, 0x00, 0x00,
  0xee, 0xfd, 0xff, 0xff, 0x03, 0x00, 0x00, 0x00, 0x03, 0x00, 0x00, 0x00,
  0x03, 0x00, 0x00, 0x00, 0x03, 0x00, 0x00, 0x00, 0x00, 0x00, 0x00, 0x01,
  0x01, 0x00, 0x00, 0x00, 0x0c, 0x00, 0x00, 0x00, 0x01, 0x00, 0x00, 0x00,
  0x0b, 0x00, 0x00, 0x00, 0xc4, 0xfb, 0xff, 0xff, 0x00, 0x00, 0x00, 0x09,
  0x14, 0x00, 0x00, 0x00, 0x0d, 0x00, 0x00, 0x00, 0x20, 0x00, 0x00, 0x00,
  0x5c, 0x00, 0x00, 0x00, 0x44, 0x00, 0x00, 0x00, 0x04, 0x00, 0x00, 0x00,
  0x01, 0x00, 0x00, 0x00, 0x03, 0x00, 0x00, 0x00, 0x03, 0x00, 0x00, 0x00,
  0x09, 0x00, 0x00, 0x00, 0x24, 0x00, 0x00, 0x00, 0x73, 0x65, 0x71, 0x75,
  0x65, 0x6e, 0x74, 0x69, 0x61, 0x6c, 0x5f, 0x32, 0x2f, 0x6d, 0x61, 0x78,
  0x5f, 0x70, 0x6f, 0x6f, 0x6c, 0x69, 0x6e, 0x67, 0x32, 0x64, 0x5f, 0x33,
  0x2f, 0x4d, 0x61, 0x78, 0x50, 0x6f, 0x6f, 0x6c, 0x00, 0x00, 0x00, 0x00,
  0x04, 0x00, 0x00, 0x00, 0xff, 0xff, 0xff, 0xff, 0x03, 0x00, 0x00, 0x00,
  0x03, 0x00, 0x00, 0x00, 0x09, 0x00, 0x00, 0x00, 0x14, 0xeb, 0xff, 0xff,
  0x08, 0x00, 0x00, 0x00, 0x0c, 0x00, 0x00, 0x00, 0x01, 0x00, 0x00, 0x00,
  0xbb, 0x34, 0xa2, 0x3d, 0x01, 0x00, 0x00, 0x00, 0x80, 0xff, 0xff, 0xff,
  0xff, 0xff, 0xff, 0xff, 0x00, 0x00, 0x00, 0x00, 0xd2, 0xfd, 0xff, 0xff,
  0x00, 0x00, 0x00, 0x01, 0x01, 0x00, 0x00, 0x00, 0x24, 0x00, 0x00, 0x00,
  0x18, 0x00, 0x00, 0x00, 0x04, 0x00, 0x00, 0x00, 0xc4, 0xfd, 0xff, 0xff,
  0x01, 0x00, 0x00, 0x00, 0x01, 0x00, 0x00, 0x00, 0x00, 0x00, 0x00, 0x01,
  0x01, 0x00, 0x00, 0x00, 0x0b, 0x00, 0x00, 0x00, 0x03, 0x00, 0x00, 0x00,
  0x0a, 0x00, 0x00, 0x00, 0x04, 0x00, 0x00, 0x00, 0x05, 0x00, 0x00, 0x00,
  0x98, 0xfc, 0xff, 0xff, 0x00, 0x00, 0x00, 0x09, 0x14, 0x00, 0x00, 0x00,
  0x0c, 0x00, 0x00, 0x00, 0x20, 0x00, 0x00, 0x00, 0xb8, 0x00, 0x00, 0x00,
  0xa0, 0x00, 0x00, 0x00, 0x04, 0x00, 0x00, 0x00, 0x01, 0x00, 0x00, 0x00,
  0x09, 0x00, 0x00, 0x00, 0x09, 0x00, 0x00, 0x00, 0x09, 0x00, 0x00, 0x00,
  0x80, 0x00, 0x00, 0x00, 0x73, 0x65, 0x71, 0x75, 0x65, 0x6e, 0x74, 0x69,
  0x61, 0x6c, 0x5f, 0x32, 0x2f, 0x63, 0x6f, 0x6e, 0x76, 0x32, 0x64, 0x5f,
  0x33, 0x2f, 0x52, 0x65, 0x6c, 0x75, 0x3b, 0x73, 0x65, 0x71, 0x75, 0x65,
  0x6e, 0x74, 0x69, 0x61, 0x6c, 0x5f, 0x32, 0x2f, 0x63, 0x6f, 0x6e, 0x76,
  0x32, 0x64, 0x5f, 0x33, 0x2f, 0x42, 0x69, 0x61, 0x73, 0x41, 0x64, 0x64,
  0x3b, 0x73, 0x65, 0x71, 0x75, 0x65, 0x6e, 0x74, 0x69, 0x61, 0x6c, 0x5f,
  0x32, 0x2f, 0x63, 0x6f, 0x6e, 0x76, 0x32, 0x64, 0x5f, 0x32, 0x2f, 0x43,
  0x6f, 0x6e, 0x76, 0x32, 0x44, 0x3b, 0x73, 0x65, 0x71, 0x75, 0x65, 0x6e,
  0x74, 0x69, 0x61, 0x6c, 0x5f, 0x32, 0x2f, 0x63, 0x6f, 0x6e, 0x76, 0x32,
  0x64, 0x5f, 0x33, 0x2f, 0x43, 0x6f, 0x6e, 0x76, 0x32, 0x44, 0x3b, 0x63,
  0x6f, 0x6e, 0x76, 0x32, 0x64, 0x5f, 0x33, 0x2f, 0x62, 0x69, 0x61, 0x73,
  0x00, 0x00, 0x00, 0x00, 0x04, 0x00, 0x00, 0x00, 0xff, 0xff, 0xff, 0xff,
  0x09, 0x00, 0x00, 0x00, 0x09, 0x00, 0x00, 0x00, 0x09, 0x00, 0x00, 0x00,
  0x44, 0xec, 0xff, 0xff, 0x08, 0x00, 0x00, 0x00, 0x0c, 0x00, 0x00, 0x00,
  0x01, 0x00, 0x00, 0x00, 0xbb, 0x34, 0xa2, 0x3d, 0x01, 0x00, 0x00, 0x00,
  0x80, 0xff, 0xff, 0xff, 0xff, 0xff, 0xff, 0xff, 0x00, 0x00, 0x0e, 0x00,
  0x1a, 0x00, 0x08, 0x00, 0x0c, 0x00, 0x10, 0x00, 0x07, 0x00, 0x14, 0x00,
  0x0e, 0x00, 0x00, 0x00, 0x00, 0x00, 0x00, 0x05, 0x02, 0x00, 0x00, 0x00,
  0x3c, 0x00, 0x00, 0x00, 0x30, 0x00, 0x00, 0x00, 0x14, 0x00, 0x00, 0x00,
  0x00, 0x00, 0x0e, 0x00, 0x18, 0x00, 0x17, 0x00, 0x10, 0x00, 0x0c, 0x00,
  0x08, 0x00, 0x04, 0x00, 0x0e, 0x00, 0x00, 0x00, 0x03, 0x00, 0x00, 0x00,
  0x03, 0x00, 0x00, 0x00, 0x03, 0x00, 0x00, 0x00, 0x03, 0x00, 0x00, 0x00,
  0x00, 0x00, 0x00, 0x01, 0x01, 0x00, 0x00, 0x00, 0x0a, 0x00, 0x00, 0x00,
  0x01, 0x00, 0x00, 0x00, 0x09, 0x00, 0x00, 0x00, 0x00, 0xfe, 0xff, 0xff,
  0x11, 0x00, 0x00, 0x00, 0x00, 0x00, 0x00, 0x11, 0x02, 0x00, 0x00, 0x00,
  0xf4, 0xfd, 0xff, 0xff, 0x00, 0x00, 0x00, 0x09, 0x14, 0x00, 0x00, 0x00,
  0x0b, 0x00, 0x00, 0x00, 0x20, 0x00, 0x00, 0x00, 0x5c, 0x00, 0x00, 0x00,
  0x44, 0x00, 0x00, 0x00, 0x04, 0x00, 0x00, 0x00, 0x01, 0x00, 0x00, 0x00,
  0x09, 0x00, 0x00, 0x00, 0x09, 0x00, 0x00, 0x00, 0x09, 0x00, 0x00, 0x00,
  0x24, 0x00, 0x00, 0x00, 0x73, 0x65, 0x71, 0x75, 0x65, 0x6e, 0x74, 0x69,
  0x61, 0x6c, 0x5f, 0x32, 0x2f, 0x6d, 0x61, 0x78, 0x5f, 0x70, 0x6f, 0x6f,
  0x6c, 0x69, 0x6e, 0x67, 0x32, 0x64, 0x5f, 0x32, 0x2f, 0x4d, 0x61, 0x78,
  0x50, 0x6f, 0x6f, 0x6c, 0x00, 0x00, 0x00, 0x00, 0x04, 0x00, 0x00, 0x00,
  0xff, 0xff, 0xff, 0xff, 0x09, 0x00, 0x00, 0x00, 0x09, 0x00, 0x00, 0x00,
  0x09, 0x00, 0x00, 0x00, 0x44, 0xed, 0xff, 0xff, 0x08, 0x00, 0x00, 0x00,
  0x0c, 0x00, 0x00, 0x00, 0x01, 0x00, 0x00, 0x00, 0xb2, 0x0c, 0x80, 0x3c,
  0x01, 0x00, 0x00, 0x00, 0x80, 0xff, 0xff, 0xff, 0xff, 0xff, 0xff, 0xff,
  0x00, 0x00, 0x0e, 0x00, 0x18, 0x00, 0x08, 0x00, 0x0c, 0x00, 0x10, 0x00,
  0x07, 0x00, 0x14, 0x00, 0x0e, 0x00, 0x00, 0x00, 0x00, 0x00, 0x00, 0x01,
  0x01, 0x00, 0x00, 0x00, 0x30, 0x00, 0x00, 0x00, 0x24, 0x00, 0x00, 0x00,
  0x10, 0x00, 0x00, 0x00, 0x0c, 0x00, 0x10, 0x00, 0x00, 0x00, 0x04, 0x00,
  0x08, 0x00, 0x0f, 0x00, 0x0c, 0x00, 0x00, 0x00, 0x01, 0x00, 0x00, 0x00,
  0x01, 0x00, 0x00, 0x00, 0x00, 0x00, 0x00, 0x01, 0x01, 0x00, 0x00, 0x00,
  0x09, 0x00, 0x00, 0x00, 0x03, 0x00, 0x00, 0x00, 0x08, 0x00, 0x00, 0x00,
  0x02, 0x00, 0x00, 0x00, 0x03, 0x00, 0x00, 0x00, 0xfc, 0xfe, 0xff, 0xff,
  0x03, 0x00, 0x00, 0x00, 0x00, 0x00, 0x00, 0x03, 0x03, 0x00, 0x00, 0x00,
  0xf0, 0xfe, 0xff, 0xff, 0x00, 0x00, 0x00, 0x09, 0x14, 0x00, 0x00, 0x00,
  0x0a, 0x00, 0x00, 0x00, 0x20, 0x00, 0x00, 0x00, 0x98, 0x00, 0x00, 0x00,
  0x80, 0x00, 0x00, 0x00, 0x04, 0x00, 0x00, 0x00, 0x01, 0x00, 0x00, 0x00,
  0x1c, 0x00, 0x00, 0x00, 0x1c, 0x00, 0x00, 0x00, 0x09, 0x00, 0x00, 0x00,
  0x63, 0x00, 0x00, 0x00, 0x73, 0x65, 0x71, 0x75, 0x65, 0x6e, 0x74, 0x69,
  0x61, 0x6c, 0x5f, 0x32, 0x2f, 0x63, 0x6f, 0x6e, 0x76, 0x32, 0x64, 0x5f,
  0x32, 0x2f, 0x52, 0x65, 0x6c, 0x75, 0x3b, 0x73, 0x65, 0x71, 0x75, 0x65,
  0x6e, 0x74, 0x69, 0x61, 0x6c, 0x5f, 0x32, 0x2f, 0x63, 0x6f, 0x6e, 0x76,
  0x32, 0x64, 0x5f, 0x32, 0x2f, 0x42, 0x69, 0x61, 0x73, 0x41, 0x64, 0x64,
  0x3b, 0x73, 0x65, 0x71, 0x75, 0x65, 0x6e, 0x74, 0x69, 0x61, 0x6c, 0x5f,
  0x32, 0x2f, 0x63, 0x6f, 0x6e, 0x76, 0x32, 0x64, 0x5f, 0x32, 0x2f, 0x43,
  0x6f, 0x6e, 0x76, 0x32, 0x44, 0x3b, 0x63, 0x6f, 0x6e, 0x76, 0x32, 0x64,
  0x5f, 0x32, 0x2f, 0x62, 0x69, 0x61, 0x73, 0x00, 0x04, 0x00, 0x00, 0x00,
  0xff, 0xff, 0xff, 0xff, 0x1c, 0x00, 0x00, 0x00, 0x1c, 0x00, 0x00, 0x00,
  0x09, 0x00, 0x00, 0x00, 0x7c, 0xee, 0xff, 0xff, 0x08, 0x00, 0x00, 0x00,
  0x0c, 0x00, 0x00, 0x00, 0x01, 0x00, 0x00, 0x00, 0xb2, 0x0c, 0x80, 0x3c,
  0x01, 0x00, 0x00, 0x00, 0x80, 0xff, 0xff, 0xff, 0xff, 0xff, 0xff, 0xff,
  0x00, 0x00, 0x0a, 0x00, 0x0c, 0x00, 0x00, 0x00, 0x04, 0x00, 0x08, 0x00,
  0x0a, 0x00, 0x00, 0x00, 0x10, 0x00, 0x00, 0x00, 0x04, 0x00, 0x00, 0x00,
  0x01, 0x00, 0x00, 0x00, 0x08, 0x00, 0x00, 0x00, 0x01, 0x00, 0x00, 0x00,
  0x00, 0x00, 0x00, 0x00, 0x0c, 0x00, 0x10, 0x00, 0x0b, 0x00, 0x00, 0x00,
  0x0c, 0x00, 0x04, 0x00, 0x0c, 0x00, 0x00, 0x00, 0x72, 0x00, 0x00, 0x00,
  0x00, 0x00, 0x00, 0x72, 0x01, 0x00, 0x00, 0x00, 0x14, 0x00, 0x1c, 0x00,
  0x08, 0x00, 0x07, 0x00, 0x0c, 0x00, 0x10, 0x00, 0x14, 0x00, 0x00, 0x00,
  0x00, 0x00, 0x18, 0x00, 0x14, 0x00, 0x00, 0x00, 0x00, 0x00, 0x00, 0x09,
  0x14, 0x00, 0x00, 0x00, 0x09, 0x00, 0x00, 0x00, 0x20, 0x00, 0x00, 0x00,
  0x44, 0x00, 0x00, 0x00, 0x2c, 0x00, 0x00, 0x00, 0x04, 0x00, 0x00, 0x00,
  0x01, 0x00, 0x00, 0x00, 0x1c, 0x00, 0x00, 0x00, 0x1c, 0x00, 0x00, 0x00,
  0x01, 0x00, 0x00, 0x00, 0x0c, 0x00, 0x00, 0x00, 0x74, 0x66, 0x6c, 0x2e,
  0x71, 0x75, 0x61, 0x6e, 0x74, 0x69, 0x7a, 0x65, 0x00, 0x00, 0x00, 0x00,
  0x04, 0x00, 0x00, 0x00, 0xff, 0xff, 0xff, 0xff, 0x1c, 0x00, 0x00, 0x00,
  0x1c, 0x00, 0x00, 0x00, 0x01, 0x00, 0x00, 0x00, 0x4c, 0xef, 0xff, 0xff,
  0x08, 0x00, 0x00, 0x00, 0x0c, 0x00, 0x00, 0x00, 0x01, 0x00, 0x00, 0x00,
  0x81, 0x80, 0x80, 0x3b, 0x01, 0x00, 0x00, 0x00, 0x80, 0xff, 0xff, 0xff,
  0xff, 0xff, 0xff, 0xff, 0xda, 0xee, 0xff, 0xff, 0x04, 0x00, 0x00, 0x00,
  0x28, 0x00, 0x00, 0x00, 0xb4, 0x00, 0x00, 0x00, 0x95, 0x00, 0x00, 0x00,
  0x2f, 0x00, 0x00, 0x00, 0xf9, 0xff, 0xff, 0xff, 0xbb, 0xff, 0xff, 0xff,
  0xee, 0xff, 0xff, 0xff, 0xad, 0xff, 0xff, 0xff, 0x75, 0xff, 0xff, 0xff,
  0x61, 0x00, 0x00, 0x00, 0xa5, 0xff, 0xff, 0xff, 0xf2, 0xee, 0xff, 0xff,
  0x00, 0x00, 0x00, 0x02, 0x10, 0x00, 0x00, 0x00, 0x08, 0x00, 0x00, 0x00,
  0x10, 0x00, 0x00, 0x00, 0x20, 0x00, 0x00, 0x00, 0x01, 0x00, 0x00, 0x00,
  0x0a, 0x00, 0x00, 0x00, 0x0c, 0x00, 0x00, 0x00, 0x64, 0x65, 0x6e, 0x73,
  0x65, 0x5f, 0x31, 0x2f, 0x62, 0x69, 0x61, 0x73, 0x00, 0x00, 0x00, 0x00,
  0xd4, 0xef, 0xff, 0xff, 0x08, 0x00, 0x00, 0x00, 0x0c, 0x00, 0x00, 0x00,
  0x01, 0x00, 0x00, 0x00, 0x15, 0x59, 0x3e, 0x3a, 0x01, 0x00, 0x00, 0x00,
  0x00, 0x00, 0x00, 0x00, 0x00, 0x00, 0x00, 0x00, 0x00, 0x00, 0x00, 0x00,
  0x66, 0xef, 0xff, 0xff, 0x04, 0x00, 0x00, 0x00, 0x2a, 0x03, 0x00, 0x00,
  0xbe, 0xf4, 0xee, 0x13, 0xf6, 0xfa, 0xe0, 0xcd, 0xe6, 0x07, 0x03, 0x0a,
  0x1c, 0xf9, 0xe8, 0x20, 0xed, 0x14, 0x0d, 0xb9, 0xc5, 0xd1, 0xcd, 0x1b,
  0xe7, 0x01, 0xfc, 0x19, 0x11, 0xea, 0xf6, 0x22, 0x11, 0x1c, 0xb7, 0xf6,
  0xfe, 0xfd, 0xf4, 0x0a, 0xe7, 0xec, 0x0c, 0xcb, 0xfe, 0x4a, 0x43, 0xf9,
  0x19, 0x13, 0xfd, 0xf3, 0xef, 0x24, 0x04, 0x1a, 0x1b, 0x0f, 0xd4, 0x0d,
  0xfd, 0xd6, 0x17, 0x00, 0xd8, 0x2d, 0xb4, 0xcc, 0xed, 0xa2, 0xe0, 0xfa,
  0xf9, 0x08, 0xc9, 0x0d, 0x1b, 0x20, 0xf0, 0x21, 0xe7, 0xed, 0x16, 0x1a,
  0x09, 0xd4, 0x14, 0x02, 0xf9, 0xe0, 0x27, 0xf7, 0xc9, 0x09, 0x29, 0x05,
  0xff, 0x2d, 0x27, 0xd8, 0x06, 0xf7, 0x1b, 0x32, 0x0e, 0xe5, 0x0e, 0x07,
  0xd8, 0xf8, 0x01, 0xe3, 0xfa, 0xcb, 0xb0, 0x00, 0xd5, 0x06, 0x30, 0xd4,
  0x20, 0x06, 0xef, 0xef, 0x04, 0xf7, 0xe6, 0xd4, 0xe5, 0x3e, 0x0b, 0x0e,
  0xb5, 0xe5, 0xcf, 0x16, 0x11, 0x05, 0x20, 0x0e, 0xdc, 0x20, 0xfd, 0xe0,
  0xf8, 0x06, 0x1a, 0x1f, 0x0c, 0x18, 0x08, 0x0b, 0x0d, 0x13, 0xe7, 0x3c,
  0xe8, 0xda, 0xfd, 0xd3, 0x0d, 0x16, 0xfd, 0xfc, 0x01, 0x01, 0xe9, 0x00,
  0xf4, 0x2c, 0x24, 0x05, 0x2d, 0x2a, 0xe7, 0xea, 0xf0, 0x06, 0x4a, 0xdc,
  0x1b, 0xdd, 0xbf, 0xaf, 0x01, 0x04, 0xf4, 0x2a, 0xcd, 0xee, 0xf0, 0xfe,
  0xf8, 0xdf, 0xec, 0xd0, 0x2b, 0x2e, 0x28, 0xf3, 0x00, 0x1c, 0x06, 0xed,
  0x13, 0xdc, 0x18, 0xfa, 0x1d, 0x15, 0x17, 0x0d, 0xfb, 0xf6, 0xd3, 0xfd,
  0xdf, 0x30, 0xf4, 0xe1, 0xf1, 0x21, 0x2c, 0xcf, 0x02, 0xf6, 0x12, 0x0a,
  0xff, 0xda, 0x20, 0x05, 0x08, 0xfc, 0xf3, 0xc7, 0x46, 0xdf, 0xd7, 0x37,
  0x0e, 0x22, 0xfd, 0xe0, 0x02, 0x19, 0x25, 0x10, 0xf5, 0xf8, 0x0d, 0xf4,
  0x31, 0x12, 0x06, 0xcb, 0xf7, 0xe8, 0x18, 0x04, 0xf3, 0xf0, 0xf5, 0xee,
  0xec, 0x1d, 0xee, 0x03, 0x30, 0x37, 0xed, 0x01, 0xf1, 0xe9, 0xea, 0xe8,
  0x08, 0x27, 0xee, 0x1b, 0x08, 0x14, 0xe4, 0xd4, 0xe5, 0x00, 0x56, 0xe9,
  0xe8, 0x07, 0xd2, 0x02, 0xed, 0xcf, 0x10, 0x0c, 0xff, 0xfb, 0xdb, 0x11,
  0xf2, 0xcb, 0xf8, 0x28, 0x11, 0x14, 0xe4, 0x01, 0xec, 0xff, 0x0c, 0xe0,
  0x0e, 0x0f, 0x20, 0xf8, 0x29, 0xf4, 0xf9, 0x2d, 0xe3, 0x25, 0xdb, 0xdf,
  0x09, 0xff, 0xed, 0xf1, 0x04, 0xfa, 0x23, 0xb7, 0x00, 0x11, 0x17, 0xaf,
  0xd7, 0xf6, 0x1f, 0x0d, 0xef, 0x00, 0x02, 0xee, 0xfe, 0x05, 0x0a, 0x27,
  0xe3, 0xf1, 0x15, 0x25, 0x08, 0x1a, 0x2b, 0x0c, 0x13, 0xeb, 0x05, 0xfe,
  0xfc, 0x07, 0x18, 0xff, 0x1a, 0x09, 0xe0, 0x99, 0xec, 0xc0, 0xd2, 0xee,
  0xdd, 0x14, 0x3b, 0xde, 0xa3, 0x06, 0xd8, 0x05, 0xe7, 0xd9, 0x14, 0xf8,
  0x0a, 0x1c, 0xd4, 0x04, 0x3a, 0xde, 0x1f, 0x21, 0xce, 0xfe, 0xf3, 0xe9,
  0x1c, 0xf7, 0x04, 0xd5, 0xe4, 0xd3, 0x07, 0x04, 0xfe, 0x08, 0x2b, 0x06,
  0xda, 0xf5, 0xed, 0x0d, 0xc9, 0x1c, 0x01, 0x2a, 0x0a, 0x2f, 0xff, 0x12,
  0x04, 0xf7, 0x08, 0xfb, 0x55, 0x2f, 0x29, 0xd9, 0x0c, 0x0f, 0xcb, 0xc1,
  0x02, 0x07, 0xe9, 0x02, 0xe9, 0xee, 0x2d, 0xf0, 0xde, 0xe1, 0x09, 0x1b,
  0xe9, 0xe1, 0xe7, 0x22, 0x07, 0xe1, 0x11, 0xe4, 0xfb, 0x01, 0xef, 0x09,
  0x1c, 0x3f, 0xee, 0xee, 0xcf, 0x02, 0xf9, 0xfa, 0xe0, 0xf9, 0x11, 0x3f,
  0xed, 0xdf, 0xf3, 0xe2, 0x07, 0xcc, 0x01, 0xfb, 0x24, 0xf8, 0x1b, 0xdb,
  0x28, 0x17, 0x0d, 0xf0, 0xf3, 0xf7, 0x2b, 0xec, 0xf7, 0x01, 0x1f, 0x0e,
  0xd0, 0xf4, 0xe5, 0xfc, 0xe5, 0xe1, 0xfd, 0x27, 0xf2, 0xe1, 0xf7, 0xff,
  0xfd, 0x53, 0x3c, 0x05, 0xd6, 0xf1, 0xf0, 0xb9, 0xcc, 0x15, 0x25, 0xda,
  0xe9, 0x12, 0x02, 0xbc, 0xe2, 0x10, 0xe9, 0xd5, 0x04, 0xf8, 0xdf, 0x1b,
  0x03, 0xff, 0x1f, 0xf7, 0xfb, 0xed, 0x2d, 0xf5, 0x06, 0x2b, 0x2f, 0xfc,
  0x02, 0x22, 0x16, 0xf6, 0xfb, 0x09, 0xe8, 0xc9, 0xe4, 0xce, 0xdb, 0x06,
  0x9f, 0xd3, 0xdc, 0xf2, 0x03, 0x08, 0x03, 0x0e, 0xe5, 0xa5, 0x27, 0x05,
  0xe9, 0x10, 0x06, 0x12, 0xd8, 0x14, 0x0e, 0xcc, 0x33, 0xfb, 0x1a, 0x09,
  0x1c, 0xf6, 0x24, 0xe5, 0xf4, 0xda, 0x0e, 0x19, 0xf0, 0x0c, 0xed, 0x08,
  0x04, 0x0f, 0x13, 0xd7, 0x09, 0x0a, 0xdc, 0xf8, 0xfa, 0x15, 0x4c, 0xc1,
  0xf4, 0x2e, 0xb6, 0xf3, 0x19, 0x25, 0x0a, 0x15, 0xd7, 0x12, 0x0b, 0x04,
  0x1f, 0x19, 0x19, 0xea, 0x06, 0x01, 0xec, 0xa7, 0xf0, 0x30, 0x18, 0xde,
  0xdd, 0xf0, 0xc8, 0xfa, 0x10, 0x06, 0xf0, 0x31, 0xf0, 0x09, 0x20, 0x22,
  0xd8, 0x0b, 0xce, 0x0c, 0x04, 0xeb, 0x27, 0xe9, 0xf9, 0xf4, 0x1c, 0x05,
  0x14, 0x07, 0x04, 0xd2, 0xf0, 0x27, 0x2f, 0x0d, 0x12, 0x01, 0xea, 0x00,
  0xf1, 0xd7, 0x08, 0xf7, 0xc9, 0xf0, 0x0c, 0xdb, 0xea, 0xe4, 0x07, 0xf4,
  0x2d, 0xe5, 0x3a, 0xfb, 0xf3, 0x1d, 0xed, 0xe0, 0xed, 0x12, 0xd9, 0xf5,
  0xfe, 0x11, 0xf6, 0x03, 0xe7, 0x03, 0xfd, 0xa5, 0xf3, 0xcf, 0x01, 0xf2,
  0xff, 0xf7, 0xe3, 0xfc, 0x0d, 0x0a, 0x18, 0x2c, 0xe9, 0x2f, 0xe4, 0xf9,
  0xb4, 0xf2, 0x08, 0xf6, 0x14, 0x02, 0xe0, 0xdd, 0x1d, 0x0a, 0xd6, 0xea,
  0x1e, 0x19, 0xec, 0xdc, 0x05, 0xbf, 0x20, 0xdf, 0x1d, 0x1f, 0xf0, 0xf2,
  0xef, 0xf0, 0xec, 0xe8, 0xe7, 0x1f, 0xea, 0xed, 0x1e, 0x13, 0xba, 0xf6,
  0x0a, 0x81, 0xf9, 0x01, 0xe3, 0xe8, 0xef, 0xcc, 0xe3, 0xfb, 0x20, 0x1e,
  0xec, 0x1f, 0x07, 0x05, 0xe2, 0x30, 0x19, 0xb4, 0x0e, 0xf8, 0x28, 0xea,
  0xe0, 0x29, 0xfa, 0x20, 0x01, 0xdb, 0xe3, 0x0c, 0xd5, 0xd2, 0x06, 0xdf,
  0x1a, 0xb6, 0xe5, 0xdc, 0xf4, 0x04, 0x05, 0x07, 0xd7, 0xeb, 0x2b, 0xd2,
  0x23, 0x1a, 0xde, 0x2f, 0x1b, 0xf7, 0x02, 0xff, 0x13, 0x17, 0xf5, 0x12,
  0x09, 0xef, 0x23, 0xdd, 0xd6, 0xef, 0x00, 0x00, 0x82, 0xf2, 0xff, 0xff,
  0x00, 0x00, 0x00, 0x09, 0x10, 0x00, 0x00, 0x00, 0x07, 0x00, 0x00, 0x00,
  0x14, 0x00, 0x00, 0x00, 0x30, 0x00, 0x00, 0x00, 0x02, 0x00, 0x00, 0x00,
  0x0a, 0x00, 0x00, 0x00, 0x51, 0x00, 0x00, 0x00, 0x1b, 0x00, 0x00, 0x00,
  0x73, 0x65, 0x71, 0x75, 0x65, 0x6e, 0x74, 0x69, 0x61, 0x6c, 0x5f, 0x32,
  0x2f, 0x64, 0x65, 0x6e, 0x73, 0x65, 0x5f, 0x31, 0x2f, 0x4d, 0x61, 0x74,
  0x4d, 0x75, 0x6c, 0x00, 0x74, 0xf3, 0xff, 0xff, 0x08, 0x00, 0x00, 0x00,
  0x0c, 0x00, 0x00, 0x00, 0x01, 0x00, 0x00, 0x00, 0x19, 0x35, 0x16, 0x3c,
  0x01, 0x00, 0x00, 0x00, 0x00, 0x00, 0x00, 0x00, 0x00, 0x00, 0x00, 0x00,
  0x00, 0x00, 0x00, 0x00, 0x06, 0xf3, 0xff, 0xff, 0x04, 0x00, 0x00, 0x00,
  0x24, 0x00, 0x00, 0x00, 0xc9, 0xf3, 0xff, 0xff, 0xb6, 0xf3, 0xff, 0xff,
  0x2c, 0x03, 0x00, 0x00, 0x43, 0x02, 0x00, 0x00, 0x46, 0xf6, 0xff, 0xff,
  0x89, 0xf7, 0xff, 0xff, 0x00, 0xf9, 0xff, 0xff, 0x19, 0xf8, 0xff, 0xff,
  0x0f, 0xf4, 0xff, 0xff, 0x1a, 0xf3, 0xff, 0xff, 0x00, 0x00, 0x00, 0x02,
  0x10, 0x00, 0x00, 0x00, 0x06, 0x00, 0x00, 0x00, 0x10, 0x00, 0x00, 0x00,
  0x78, 0x00, 0x00, 0x00, 0x01, 0x00, 0x00, 0x00, 0x09, 0x00, 0x00, 0x00,
  0x65, 0x00, 0x00, 0x00, 0x73, 0x65, 0x71, 0x75, 0x65, 0x6e, 0x74, 0x69,
  0x61, 0x6c, 0x5f, 0x32, 0x2f, 0x63, 0x6f, 0x6e, 0x76, 0x32, 0x64, 0x5f,
  0x33, 0x2f, 0x42, 0x69, 0x61, 0x73, 0x41, 0x64, 0x64, 0x3b, 0x73, 0x65,
  0x71, 0x75, 0x65, 0x6e, 0x74, 0x69, 0x61, 0x6c, 0x5f, 0x32, 0x2f, 0x63,
  0x6f, 0x6e, 0x76, 0x32, 0x64, 0x5f, 0x32, 0x2f, 0x43, 0x6f, 0x6e, 0x76,
  0x32, 0x44, 0x3b, 0x73, 0x65, 0x71, 0x75, 0x65, 0x6e, 0x74, 0x69, 0x61,
  0x6c, 0x5f, 0x32, 0x2f, 0x63, 0x6f, 0x6e, 0x76, 0x32, 0x64, 0x5f, 0x33,
  0x2f, 0x43, 0x6f, 0x6e, 0x76, 0x32, 0x44, 0x3b, 0x63, 0x6f, 0x6e, 0x76,
  0x32, 0x64, 0x5f, 0x33, 0x2f, 0x62, 0x69, 0x61, 0x73, 0x00, 0x00, 0x00,
  0x54, 0xf4, 0xff, 0xff, 0x08, 0x00, 0x00, 0x00, 0x2c, 0x00, 0x00, 0x00,
  0x09, 0x00, 0x00, 0x00, 0x86, 0x5e, 0xe5, 0x38, 0x56, 0x29, 0xfc, 0x38,
  0x3e, 0xf0, 0x8e, 0x38, 0x71, 0x3b, 0xb2, 0x38, 0x4a, 0xea, 0xfd, 0x38,
  0xab, 0x7c, 0xd1, 0x38, 0x55, 0xa7, 0x9f, 0x38, 0xe7, 0xf4, 0xe1, 0x38,
  0xd9, 0xbe, 0xef, 0x38, 0x09, 0x00, 0x00, 0x00, 0x00, 0x00, 0x00, 0x00,
  0x00, 0x00, 0x00, 0x00, 0x00, 0x00, 0x00, 0x00, 0x00, 0x00, 0x00, 0x00,
  0x00, 0x00, 0x00, 0x00, 0x00, 0x00, 0x00, 0x00, 0x00, 0x00, 0x00, 0x00,
  0x00, 0x00, 0x00, 0x00, 0x00, 0x00, 0x00, 0x00, 0x00, 0x00, 0x00, 0x00,
  0x00, 0x00, 0x00, 0x00, 0x00, 0x00, 0x00, 0x00, 0x00, 0x00, 0x00, 0x00,
  0x00, 0x00, 0x00, 0x00, 0x00, 0x00, 0x00, 0x00, 0x00, 0x00, 0x00, 0x00,
  0x00, 0x00, 0x00, 0x00, 0x00, 0x00, 0x00, 0x00, 0x42, 0xf4, 0xff, 0xff,
  0x04, 0x00, 0x00, 0x00, 0xe9, 0x07, 0x00, 0x00, 0xbc, 0xd9, 0x06, 0xed,
  0x81, 0x10, 0xf2, 0xd7, 0xec, 0xe6, 0xda, 0xf2, 0xd1, 0xb1, 0x06, 0xdd,
  0xd8, 0xbe, 0x0c, 0xdf, 0x10, 0x0a, 0x1d, 0x2c, 0x0b, 0xe9, 0x30, 0x02,
  0xf6, 0xff, 0x14, 0x38, 0x07, 0xfd, 0xfa, 0xac, 0x0c, 0x24, 0x06, 0x16,
  0xf2, 0xe8, 0xf3, 0x09, 0xe3, 0xfa, 0xef, 0x13, 0xe4, 0xfd, 0x1c, 0xe9,
  0x0b, 0x05, 0x0e, 0xdf, 0x36, 0xf8, 0xff, 0x1b, 0xdc, 0x10, 0x26, 0x07,
  0xf0, 0x17, 0xeb, 0xf7, 0x26, 0xde, 0xff, 0xe8, 0x01, 0xfe, 0xff, 0x2b,
  0xf9, 0xfc, 0xf9, 0x0b, 0x14, 0x03, 0x2a, 0xda, 0x22, 0xbf, 0xd0, 0x0c,
  0x0d, 0x18, 0x03, 0x11, 0xcd, 0x09, 0x15, 0xf7, 0x07, 0xe2, 0xfb, 0x03,
  0x0b, 0x1d, 0xf9, 0x13, 0xf4, 0x19, 0xfe, 0x0b, 0x03, 0x13, 0xf6, 0x0b,
  0xe3, 0xce, 0xfd, 0x0c, 0xe1, 0xf5, 0x14, 0x07, 0x23, 0xcb, 0xe2, 0x06,
  0x18, 0xd5, 0x18, 0x0a, 0x0c, 0x04, 0xdf, 0x01, 0x19, 0x09, 0x00, 0xce,
  0x1e, 0xf8, 0xef, 0xf1, 0xdf, 0xe8, 0x04, 0xeb, 0xe1, 0x10, 0xfc, 0x18,
  0x01, 0xef, 0x13, 0x23, 0xf2, 0x14, 0x17, 0xf8, 0x07, 0x1d, 0xde, 0x18,
  0x30, 0xfb, 0xfa, 0x21, 0x03, 0xf5, 0xd1, 0xec, 0x17, 0x07, 0x1d, 0xe7,
  0x18, 0x23, 0xe9, 0xe9, 0x0d, 0xdb, 0x03, 0x19, 0xd9, 0x06, 0xf4, 0x07,
  0xeb, 0x05, 0x10, 0xf7, 0xe0, 0xea, 0xfa, 0x05, 0x27, 0x0f, 0xea, 0x3b,
  0x07, 0x13, 0xf5, 0x11, 0xf4, 0x05, 0x09, 0xf6, 0xfe, 0x1e, 0xf8, 0x21,
  0xe6, 0xd8, 0x24, 0x07, 0xb2, 0x28, 0xf4, 0xf1, 0x27, 0xed, 0x08, 0x07,
  0x13, 0x17, 0xfe, 0xfb, 0x39, 0x2e, 0xea, 0xef, 0xf0, 0x26, 0xea, 0xe3,
  0xf9, 0x2e, 0x19, 0x41, 0x1f, 0x0b, 0x2b, 0xfe, 0x05, 0x00, 0xfa, 0xfd,
  0x17, 0x00, 0x01, 0x15, 0xd3, 0xda, 0x05, 0x13, 0x17, 0x10, 0x10, 0x0d,
  0xf2, 0xee, 0xf3, 0x19, 0x24, 0x02, 0xf0, 0x38, 0x30, 0xd4, 0x1c, 0xf5,
  0x04, 0x24, 0xfe, 0xd5, 0x09, 0x08, 0xf9, 0xe8, 0xed, 0x02, 0x0e, 0x1b,
  0x37, 0x09, 0x11, 0xcd, 0xee, 0x2b, 0x21, 0x0e, 0xdc, 0x1e, 0xf8, 0x0c,
  0xf5, 0xfd, 0x17, 0x0f, 0xe8, 0x07, 0xe5, 0x04, 0x1a, 0x0d, 0xef, 0x34,
  0x11, 0xcf, 0x0b, 0xed, 0xf4, 0x2a, 0xd1, 0xf9, 0x3b, 0x31, 0xdc, 0xed,
  0x22, 0x36, 0xff, 0x10, 0x1e, 0x10, 0x35, 0xfd, 0xee, 0x18, 0x09, 0x2c,
  0x00, 0xe8, 0x15, 0x2c, 0xec, 0xfd, 0x1f, 0x17, 0xee, 0xeb, 0xf2, 0x2d,
  0xf5, 0x0b, 0xf4, 0xff, 0xe5, 0x1c, 0xfa, 0xce, 0x32, 0x16, 0xd4, 0x13,
  0xee, 0xd5, 0x43, 0xef, 0x9f, 0x42, 0x2b, 0xee, 0xe7, 0x03, 0x0f, 0xf8,
  0x07, 0x3e, 0xc6, 0x0d, 0xf9, 0xd3, 0xfc, 0xfa, 0xe6, 0x08, 0xdf, 0xf2,
  0xf6, 0xed, 0xd8, 0xf9, 0xb4, 0xf9, 0xee, 0xbf, 0x09, 0xdb, 0xdf, 0xed,
  0xee, 0xf5, 0x1f, 0x20, 0x81, 0x13, 0x01, 0xec, 0x30, 0xf1, 0xba, 0x43,
  0x09, 0x88, 0x2a, 0x15, 0xec, 0xdd, 0xe7, 0x25, 0xb1, 0x15, 0x14, 0xe3,
  0xda, 0x07, 0xf1, 0xf3, 0xf9, 0xfe, 0xec, 0x40, 0x04, 0xe4, 0x0a, 0xee,
  0xff, 0xf5, 0x02, 0xbe, 0x2f, 0xd2, 0x03, 0xef, 0xbf, 0xee, 0xfb, 0xff,
  0xd5, 0xfd, 0xe7, 0xe7, 0xec, 0x2e, 0xbe, 0xfc, 0x51, 0x12, 0xb8, 0x30,
  0x0f, 0x07, 0x09, 0x94, 0xf9, 0xc5, 0x2b, 0x15, 0x9d, 0xbd, 0x14, 0x19,
  0xe4, 0x2f, 0x08, 0x18, 0x0f, 0xf6, 0xe6, 0xd9, 0xe9, 0x23, 0x0f, 0x00,
  0x86, 0xf6, 0xfc, 0x02, 0xe7, 0xbe, 0xcf, 0xd2, 0x1f, 0xd3, 0xc2, 0xf1,
  0x03, 0x12, 0xc4, 0x0d, 0x04, 0xf6, 0x17, 0xce, 0xd3, 0xe9, 0x59, 0xe5,
  0x00, 0xf5, 0xf6, 0x34, 0x11, 0xeb, 0x04, 0x1c, 0x22, 0x0d, 0xe8, 0xff,
  0x21, 0xfb, 0x0b, 0xe7, 0x06, 0x17, 0xf6, 0x37, 0xf2, 0x08, 0x14, 0x01,
  0x04, 0x0b, 0xed, 0xee, 0x34, 0xde, 0xd0, 0x3d, 0xbc, 0xf3, 0x0e, 0x04,
  0x13, 0x35, 0xaf, 0xe6, 0x4b, 0xe2, 0x02, 0xf8, 0x13, 0x46, 0xd9, 0x0f,
  0xfd, 0xfa, 0x52, 0x15, 0xf1, 0x0e, 0x0e, 0x05, 0x01, 0x34, 0xfd, 0x10,
  0x2b, 0x18, 0x3f, 0xee, 0x2f, 0x1b, 0x7c, 0x03, 0xdd, 0x2e, 0x01, 0x47,
  0xd9, 0x37, 0xee, 0x7f, 0x2a, 0x0c, 0xe9, 0x19, 0x7b, 0xce, 0x04, 0xec,
  0x58, 0x31, 0x12, 0x1e, 0xfa, 0xe7, 0x0b, 0xdc, 0xd4, 0x03, 0xde, 0xd8,
  0xe0, 0xef, 0xd3, 0xd1, 0xc2, 0x0f, 0x44, 0x14, 0xec, 0xdb, 0xf9, 0xdd,
  0x1b, 0xb3, 0xe1, 0x0e, 0x8a, 0x29, 0x10, 0xef, 0xd4, 0x14, 0x9c, 0x0d,
  0x1c, 0xed, 0x1f, 0xe0, 0x1f, 0x16, 0xb6, 0xf5, 0xce, 0x1b, 0xaf, 0xf7,
  0x15, 0x50, 0xdb, 0xb2, 0x0d, 0x06, 0xb7, 0x29, 0x17, 0x0b, 0xf8, 0x2b,
  0xe7, 0xdf, 0xf8, 0x0b, 0x6b, 0x21, 0xe4, 0x22, 0x12, 0x06, 0x0f, 0xe4,
  0xe8, 0x65, 0xfc, 0xc8, 0xf5, 0xd5, 0x0e, 0x0d, 0xe0, 0xc2, 0x34, 0x0b,
  0xfc, 0xe6, 0xde, 0xe2, 0x8c, 0xfe, 0x9f, 0xdd, 0xd3, 0x22, 0xe6, 0xf4,
  0x0d, 0xb5, 0xd1, 0x3f, 0xcf, 0x00, 0x95, 0xfa, 0xf8, 0xfa, 0x17, 0x04,
  0x3d, 0x04, 0x11, 0xdd, 0x0a, 0xca, 0xd6, 0x19, 0xe1, 0x3f, 0x3d, 0xbe,
  0xe6, 0x1a, 0x22, 0xf5, 0xd0, 0x15, 0x06, 0xf9, 0x13, 0xd9, 0xc0, 0x15,
  0x18, 0xda, 0x3c, 0xdb, 0xdd, 0xdf, 0x03, 0xec, 0xce, 0x99, 0xab, 0xed,
  0xf6, 0xfe, 0xdf, 0xcd, 0x9b, 0x09, 0xc4, 0xd0, 0xd4, 0xe3, 0x1d, 0xe8,
  0xcd, 0xd0, 0xd9, 0x86, 0xdb, 0xbb, 0x10, 0x06, 0xd8, 0xdd, 0xe7, 0xd5,
  0x10, 0x1a, 0x1b, 0xfb, 0xde, 0x2e, 0x20, 0xd6, 0xf9, 0x22, 0x1b, 0x15,
  0x13, 0xfe, 0x29, 0x27, 0xe1, 0x19, 0x9f, 0xd5, 0x29, 0xbe, 0xf7, 0x2d,
  0xee, 0x81, 0xfe, 0xe6, 0x0e, 0x22, 0x84, 0x3b, 0xeb, 0x0b, 0x49, 0x15,
  0xde, 0x0e, 0xff, 0x02, 0x1c, 0xf0, 0x0c, 0x2b, 0x18, 0x29, 0xee, 0x11,
  0xe8, 0x3d, 0x2e, 0x06, 0x3b, 0x10, 0xf1, 0xeb, 0x10, 0x1a, 0x49, 0xf6,
  0xff, 0x3b, 0xf5, 0xb9, 0x0b, 0x48, 0xbf, 0x13, 0x37, 0x2c, 0xe4, 0xfc,
  0x1e, 0x0f, 0x18, 0xaf, 0x05, 0x04, 0x43, 0x3a, 0xf6, 0x1e, 0xf1, 0xf3,
  0x17, 0x03, 0xf8, 0x04, 0x2f, 0xee, 0xf8, 0x12, 0xe8, 0x3f, 0xf4, 0x0d,
  0xda, 0x01, 0xd1, 0xd1, 0x37, 0xc5, 0x36, 0x31, 0xc4, 0x02, 0x33, 0x05,
  0x19, 0xe1, 0x16, 0xfe, 0xe7, 0x2b, 0x38, 0x28, 0x0f, 0x0e, 0xea, 0xc6,
  0x0c, 0xcb, 0x18, 0x12, 0x50, 0x04, 0xe0, 0xd6, 0xbd, 0x36, 0xd0, 0x8c,
  0xc4, 0x13, 0xd5, 0xdb, 0xe5, 0xc2, 0x03, 0xc2, 0x08, 0xa5, 0xfb, 0xe2,
  0xdc, 0x23, 0x95, 0x48, 0x22, 0x21, 0x15, 0x16, 0xfb, 0xfa, 0xe5, 0xfe,
  0x34, 0xf5, 0x11, 0xee, 0xfe, 0x07, 0xef, 0xf2, 0x0a, 0xff, 0x01, 0x28,
  0x0e, 0x12, 0x07, 0xc8, 0x05, 0xed, 0xfb, 0xfb, 0x13, 0x09, 0xcc, 0xf4,
  0xec, 0xdb, 0xf9, 0xf2, 0xf9, 0xd5, 0x04, 0x00, 0xfd, 0xf5, 0x02, 0xd5,
  0xdd, 0xf9, 0x0b, 0x20, 0xf9, 0x1f, 0x1f, 0xcb, 0x07, 0x08, 0x0c, 0x2b,
  0xfa, 0xe3, 0xf7, 0xf3, 0xd5, 0x1c, 0x17, 0xdf, 0x13, 0xda, 0x08, 0x0a,
  0xcf, 0xfb, 0x1f, 0x07, 0x10, 0x09, 0x13, 0xe9, 0x12, 0x2a, 0xde, 0x1a,
  0xd9, 0x0d, 0x06, 0x14, 0x05, 0x04, 0x2c, 0xdc, 0xba, 0x00, 0x11, 0xe1,
  0x24, 0x0b, 0x25, 0x3a, 0xf4, 0x02, 0x15, 0xec, 0xe8, 0xf1, 0x4a, 0xfc,
  0x81, 0x1c, 0xe3, 0x20, 0x1e, 0xcf, 0xe0, 0x22, 0xfe, 0xfc, 0x08, 0x30,
  0xf0, 0x10, 0x02, 0x2a, 0xd5, 0x07, 0x1c, 0x01, 0x08, 0xf4, 0xd8, 0x29,
  0x15, 0xf6, 0x10, 0x0b, 0xc0, 0xcd, 0xee, 0xfc, 0x0e, 0xdf, 0xf9, 0x13,
  0x2a, 0xf2, 0xe7, 0x08, 0xf9, 0xfc, 0xe6, 0x0a, 0xe2, 0xc0, 0x04, 0xeb,
  0x01, 0x07, 0xdf, 0x0e, 0xd6, 0xfa, 0x25, 0x0a, 0x34, 0x04, 0xef, 0x57,
  0x38, 0xef, 0xe2, 0x24, 0xef, 0x0b, 0xf7, 0xc6, 0x20, 0xee, 0xec, 0xd0,
  0x03, 0x17, 0xdd, 0xe3, 0xf9, 0x23, 0xdf, 0xe4, 0xe7, 0x13, 0x38, 0xf9,
  0x0e, 0x0d, 0x0d, 0xfb, 0xfb, 0xd9, 0x34, 0x15, 0xf6, 0xe9, 0x14, 0x16,
  0x28, 0xfb, 0xe6, 0x13, 0xf2, 0x22, 0x09, 0xec, 0x5e, 0x0f, 0x07, 0xe1,
  0xe0, 0xf1, 0x15, 0xf6, 0x06, 0x29, 0xe1, 0xdf, 0xd4, 0x27, 0xf7, 0xcd,
  0xae, 0x12, 0x21, 0xf4, 0xa3, 0x03, 0xf1, 0xce, 0xf8, 0x0f, 0xf5, 0x15,
  0xe7, 0xe5, 0xff, 0x0d, 0xe9, 0xf4, 0x03, 0xe2, 0x23, 0xde, 0x04, 0xf8,
  0x0f, 0x1d, 0xf4, 0xd9, 0xf1, 0xd3, 0xe7, 0xd7, 0xe2, 0x03, 0x20, 0x1c,
  0x81, 0x1e, 0x00, 0x09, 0x1c, 0xcf, 0xee, 0x33, 0xc9, 0xe4, 0x2a, 0x08,
  0x20, 0xfd, 0xdf, 0x0e, 0xba, 0x14, 0xc8, 0xd3, 0x03, 0x1d, 0xeb, 0xe3,
  0x20, 0x45, 0x03, 0xb7, 0x01, 0xfa, 0x1b, 0xfa, 0xc4, 0x05, 0x3e, 0xe8,
  0xbd, 0x0e, 0x01, 0x28, 0xe3, 0x04, 0x0c, 0x32, 0x0a, 0x9e, 0xff, 0xf8,
  0x2d, 0x0e, 0xe0, 0x33, 0x26, 0xfd, 0xe0, 0xef, 0x12, 0xe3, 0x15, 0xee,
  0x2b, 0xef, 0x1e, 0xc5, 0xfb, 0x00, 0x0c, 0xee, 0xf0, 0x37, 0x05, 0x02,
  0xc9, 0xee, 0x1b, 0x28, 0xe6, 0xe9, 0x29, 0xff, 0x12, 0xdd, 0xe7, 0x38,
  0x3b, 0xed, 0xfd, 0x0c, 0x11, 0x38, 0xe9, 0xe6, 0x41, 0x1c, 0x0b, 0xfc,
  0x19, 0x1b, 0x1c, 0x07, 0x1a, 0xfd, 0xf5, 0xf6, 0xf4, 0x2f, 0xdb, 0xe6,
  0x19, 0x10, 0xd8, 0x00, 0x14, 0x12, 0x00, 0xea, 0x2d, 0xef, 0xf5, 0x26,
  0x1c, 0x15, 0x04, 0x15, 0x07, 0x1b, 0xf6, 0xfc, 0x2d, 0xee, 0x33, 0x24,
  0x0c, 0x0a, 0x0d, 0x1b, 0x1d, 0xda, 0x07, 0x28, 0xf3, 0xe6, 0x29, 0x1b,
  0x50, 0x1e, 0xf1, 0xfb, 0xe9, 0xfd, 0x11, 0x03, 0xdc, 0x13, 0x10, 0xcd,
  0xea, 0x00, 0x07, 0xf8, 0xfb, 0x02, 0x10, 0xec, 0x0e, 0x06, 0x0f, 0x2b,
  0xf9, 0xfd, 0x0e, 0x19, 0xc3, 0xfa, 0xd6, 0x39, 0x25, 0x05, 0x0d, 0xcc,
  0x27, 0x12, 0xb8, 0xf4, 0x31, 0xd7, 0x13, 0xef, 0xf2, 0xd2, 0xea, 0x01,
  0xec, 0xc7, 0xf7, 0xf3, 0x0b, 0x26, 0x3b, 0x16, 0x27, 0x0e, 0x1a, 0xd8,
  0xbb, 0x2d, 0xc0, 0x1a, 0x31, 0xb8, 0xfe, 0x5f, 0xd1, 0xfd, 0x39, 0xab,
  0x47, 0x36, 0xe3, 0xf4, 0x01, 0xe2, 0xbe, 0xfb, 0xf1, 0x4b, 0x14, 0xe9,
  0xf6, 0xcc, 0x1a, 0xcc, 0xf0, 0x90, 0x18, 0x0d, 0xd8, 0xee, 0xe4, 0x06,
  0xcb, 0x48, 0xdf, 0x07, 0x54, 0xf3, 0xe7, 0x5f, 0x20, 0xe6, 0x09, 0xfc,
  0x18, 0x46, 0xcd, 0xea, 0x36, 0x19, 0xe4, 0x0a, 0xfd, 0x34, 0x04, 0xf5,
  0xb9, 0xf2, 0x02, 0xef, 0xd3, 0xe6, 0x14, 0xf6, 0xd2, 0xc5, 0x15, 0xf3,
  0x13, 0xdf, 0x0c, 0x1e, 0xe2, 0xd7, 0xca, 0xe4, 0x0e, 0xb0, 0x31, 0xba,
  0x20, 0x32, 0xb4, 0x04, 0x52, 0x1e, 0xf2, 0x27, 0x10, 0x06, 0x21, 0x00,
  0x19, 0x34, 0x0b, 0x0f, 0xf6, 0x2e, 0xbb, 0xfd, 0x4d, 0xf7, 0x0e, 0xdd,
  0x2c, 0xfb, 0xe8, 0xc3, 0xf6, 0x10, 0x25, 0xea, 0xe9, 0x0a, 0x07, 0x25,
  0xee, 0x29, 0x1b, 0xf8, 0x52, 0xf2, 0xca, 0x3e, 0xd9, 0x35, 0x20, 0xc3,
  0xf1, 0x36, 0xf9, 0x13, 0x3b, 0xff, 0x3b, 0xf8, 0x10, 0x21, 0xff, 0x03,
  0x46, 0xfe, 0x16, 0x36, 0xbd, 0x2c, 0x0d, 0x31, 0x43, 0x1f, 0xbb, 0x24,
  0xe6, 0xc4, 0x0b, 0xf5, 0xdd, 0xf4, 0x31, 0x29, 0xd6, 0xf1, 0x1b, 0xc8,
  0xdd, 0xfb, 0x20, 0x20, 0x39, 0xca, 0x3b, 0x28, 0xbe, 0x09, 0x17, 0xb2,
  0x07, 0x7f, 0xb0, 0x01, 0x22, 0xe9, 0x00, 0x09, 0xff, 0xe8, 0x25, 0x0e,
  0x20, 0xe7, 0xf6, 0x11, 0x1e, 0x2d, 0xe0, 0xf3, 0x1e, 0x17, 0xc3, 0x18,
  0x08, 0xea, 0x5c, 0xeb, 0x0a, 0x0e, 0x13, 0x09, 0x83, 0xe9, 0x13, 0x23,
  0x27, 0xf3, 0x06, 0x17, 0x06, 0x06, 0xf9, 0x0f, 0xfb, 0x09, 0xf2, 0x0c,
  0xf7, 0xf7, 0xed, 0xfb, 0xec, 0x0c, 0x0b, 0x24, 0x05, 0xfd, 0x0b, 0x2c,
  0x0f, 0xe2, 0x0f, 0xc8, 0x1e, 0x0b, 0x2b, 0x21, 0x1c, 0x18, 0x28, 0x0d,
  0xa1, 0x08, 0xe8, 0x2d, 0x19, 0xe9, 0xf7, 0x2d, 0xf8, 0xcf, 0x04, 0x11,
  0x27, 0xee, 0xfe, 0xf6, 0x16, 0xe7, 0x25, 0x18, 0xff, 0x35, 0x0a, 0x04,
  0x07, 0x07, 0xcb, 0xf8, 0x26, 0xd5, 0x31, 0xe7, 0xcd, 0xfb, 0xfc, 0xea,
  0x81, 0x20, 0xfe, 0x0d, 0xf1, 0xfa, 0xf2, 0x05, 0xff, 0xee, 0x19, 0x07,
  0xdf, 0x0d, 0x12, 0x1e, 0x09, 0xc8, 0xda, 0x16, 0x94, 0xc2, 0x25, 0xba,
  0xf6, 0xc2, 0xac, 0xfa, 0xbd, 0xc2, 0x13, 0xf2, 0xf9, 0xdc, 0xeb, 0xdc,
  0xe3, 0x1f, 0xf4, 0xbe, 0x33, 0x26, 0xf2, 0xeb, 0xde, 0xd8, 0x24, 0xf6,
  0xeb, 0x44, 0x12, 0x0c, 0xd8, 0xe1, 0x06, 0x14, 0x08, 0x13, 0xfd, 0x17,
  0x34, 0xf4, 0x19, 0x3a, 0xd9, 0xcc, 0xcd, 0x00, 0xbc, 0xd6, 0x20, 0xe0,
  0x2c, 0xd2, 0xe6, 0xcc, 0xf3, 0x0b, 0xb1, 0xc7, 0x0a, 0xfd, 0xd9, 0x29,
  0x44, 0xcd, 0x31, 0xda, 0x26, 0x00, 0xec, 0x0d, 0xfa, 0x3f, 0x05, 0x0e,
  0x1b, 0xe9, 0xfe, 0x1f, 0xe4, 0xf0, 0xea, 0xea, 0xd4, 0xea, 0xe7, 0x53,
  0x53, 0xf6, 0x33, 0xbc, 0xf2, 0x6e, 0x39, 0x37, 0x0b, 0x1d, 0xd0, 0x21,
  0xf3, 0x03, 0x05, 0xf3, 0xf8, 0x13, 0x91, 0x01, 0xf3, 0xf2, 0x31, 0xc7,
  0xc0, 0xfb, 0x04, 0xbf, 0xf0, 0xd1, 0xfd, 0x30, 0xc4, 0xdd, 0xd1, 0xf6,
  0xf2, 0x01, 0x1a, 0xc7, 0x08, 0x03, 0x01, 0xdd, 0x14, 0x06, 0xc2, 0x39,
  0xe6, 0xc5, 0x00, 0xf5, 0x07, 0x12, 0xe6, 0x2d, 0x13, 0xee, 0xdc, 0x1c,
  0x02, 0xed, 0x1b, 0xf7, 0x27, 0x0c, 0xfa, 0x14, 0x24, 0x1c, 0xe9, 0x09,
  0x1a, 0x16, 0x08, 0xfb, 0xfd, 0x31, 0x06, 0xf5, 0xe3, 0x50, 0xe7, 0x01,
  0xf1, 0xe0, 0x3a, 0x07, 0xf1, 0x1f, 0x06, 0xd1, 0xfd, 0x1d, 0xeb, 0xc5,
  0xf4, 0x15, 0x08, 0x1d, 0xde, 0x14, 0x2b, 0xfe, 0x1b, 0xf8, 0xf2, 0xe7,
  0x03, 0x04, 0x0e, 0x08, 0x04, 0x21, 0x14, 0xc8, 0xd4, 0xe9, 0x00, 0x15,
  0x0e, 0x2a, 0x1d, 0xfd, 0xe3, 0xdd, 0xf4, 0xfa, 0xf3, 0xfb, 0x1e, 0xea,
  0xe3, 0xd0, 0x14, 0x20, 0xfe, 0xf3, 0x0c, 0x16, 0xe0, 0x06, 0x40, 0x14,
  0x09, 0xdb, 0x19, 0x07, 0x06, 0xed, 0xe5, 0x40, 0x0b, 0x05, 0xec, 0x0d,
  0xc4, 0x02, 0x11, 0x05, 0x06, 0xdb, 0xff, 0x2e, 0x0c, 0x81, 0x1a, 0x07,
  0x05, 0x05, 0xe4, 0xee, 0x25, 0x00, 0xe9, 0x13, 0x13, 0x08, 0xf7, 0x17,
  0xfe, 0x00, 0xee, 0x01, 0x05, 0xeb, 0xff, 0x0f, 0x12, 0x0c, 0x0b, 0x13,
  0xee, 0xfb, 0xf9, 0x0f, 0x1b, 0x22, 0x0e, 0x07, 0x0f, 0xf1, 0xd5, 0x01,
  0x06, 0x00, 0x2d, 0x17, 0xf4, 0xfb, 0xed, 0xca, 0xfc, 0x2b, 0xf6, 0x09,
  0x0a, 0x2b, 0xee, 0x04, 0x04, 0xd9, 0x13, 0x34, 0x21, 0xc9, 0x15, 0x05,
  0x00, 0x27, 0xe1, 0x17, 0x02, 0x02, 0x05, 0x3e, 0xbb, 0xed, 0x09, 0xcd,
  0x15, 0x11, 0xf7, 0x1d, 0xeb, 0xfa, 0x27, 0x9b, 0xfc, 0xe9, 0x2b, 0x11,
  0xd9, 0xfb, 0xf4, 0x31, 0xd4, 0xe7, 0xdf, 0x05, 0xfd, 0xe3, 0x1d, 0xbc,
  0x33, 0x07, 0xaa, 0xe8, 0x17, 0x00, 0x00, 0x00, 0x1e, 0xfc, 0xff, 0xff,
  0x00, 0x00, 0x00, 0x09, 0x10, 0x00, 0x00, 0x00, 0x05, 0x00, 0x00, 0x00,
  0x1c, 0x00, 0x00, 0x00, 0x3c, 0x00, 0x00, 0x00, 0x04, 0x00, 0x00, 0x00,
  0x09, 0x00, 0x00, 0x00, 0x05, 0x00, 0x00, 0x00, 0x05, 0x00, 0x00, 0x00,
  0x09, 0x00, 0x00, 0x00, 0x1c, 0x00, 0x00, 0x00, 0x73, 0x65, 0x71, 0x75,
  0x65, 0x6e, 0x74, 0x69, 0x61, 0x6c, 0x5f, 0x32, 0x2f, 0x63, 0x6f, 0x6e,
  0x76, 0x32, 0x64, 0x5f, 0x33, 0x2f, 0x43, 0x6f, 0x6e, 0x76, 0x32, 0x44,
  0x00, 0x00, 0x00, 0x00, 0x1c, 0xfd, 0xff, 0xff, 0x08, 0x00, 0x00, 0x00,
  0x2c, 0x00, 0x00, 0x00, 0x09, 0x00, 0x00, 0x00, 0xc8, 0x47, 0xe5, 0x3b,
  0x56, 0x10, 0xfc, 0x3b, 0x12, 0xe2, 0x8e, 0x3b, 0xc5, 0x29, 0xb2, 0x3b,
  0x1d, 0xd1, 0xfd, 0x3b, 0xe6, 0x67, 0xd1, 0x3b, 0x81, 0x97, 0x9f, 0x3b,
  0x80, 0xde, 0xe1, 0x3b, 0x14, 0xa7, 0xef, 0x3b, 0x09, 0x00, 0x00, 0x00,
  0x00, 0x00, 0x00, 0x00, 0x00, 0x00, 0x00, 0x00, 0x00, 0x00, 0x00, 0x00,
  0x00, 0x00, 0x00, 0x00, 0x00, 0x00, 0x00, 0x00, 0x00, 0x00, 0x00, 0x00,
  0x00, 0x00, 0x00, 0x00, 0x00, 0x00, 0x00, 0x00, 0x00, 0x00, 0x00, 0x00,
  0x00, 0x00, 0x00, 0x00, 0x00, 0x00, 0x00, 0x00, 0x00, 0x00, 0x00, 0x00,
  0x00, 0x00, 0x00, 0x00, 0x00, 0x00, 0x00, 0x00, 0x00, 0x00, 0x00, 0x00,
  0x00, 0x00, 0x00, 0x00, 0x00, 0x00, 0x00, 0x00, 0x00, 0x00, 0x00, 0x00,
  0x0a, 0xfd, 0xff, 0xff, 0x04, 0x00, 0x00, 0x00, 0x24, 0x00, 0x00, 0x00,
  0x8d, 0xb8, 0xff, 0xff, 0xa7, 0xfe, 0xff, 0xff, 0x16, 0xd7, 0xff, 0xff,
  0xc3, 0xf3, 0xff, 0xff, 0xe2, 0x07, 0x00, 0x00, 0x04, 0xff, 0xff, 0xff,
  0xbc, 0xfd, 0xff, 0xff, 0x2c, 0xda, 0xff, 0xff, 0xf7, 0xd6, 0xff, 0xff,
  0x1e, 0xfd, 0xff, 0xff, 0x00, 0x00, 0x00, 0x02, 0x10, 0x00, 0x00, 0x00,
  0x04, 0x00, 0x00, 0x00, 0x10, 0x00, 0x00, 0x00, 0x5c, 0x00, 0x00, 0x00,
  0x01, 0x00, 0x00, 0x00, 0x09, 0x00, 0x00, 0x00, 0x48, 0x00, 0x00, 0x00,
  0x73, 0x65, 0x71, 0x75, 0x65, 0x6e, 0x74, 0x69, 0x61, 0x6c, 0x5f, 0x32,
  0x2f, 0x63, 0x6f, 0x6e, 0x76, 0x32, 0x64, 0x5f, 0x32, 0x2f, 0x42, 0x69,
  0x61, 0x73, 0x41, 0x64, 0x64, 0x3b, 0x73, 0x65, 0x71, 0x75, 0x65, 0x6e,
  0x74, 0x69, 0x61, 0x6c, 0x5f, 0x32, 0x2f, 0x63, 0x6f, 0x6e, 0x76, 0x32,
  0x64, 0x5f, 0x32, 0x2f, 0x43, 0x6f, 0x6e, 0x76, 0x32, 0x44, 0x3b, 0x63,
  0x6f, 0x6e, 0x76, 0x32, 0x64, 0x5f, 0x32, 0x2f, 0x62, 0x69, 0x61, 0x73,
  0x00, 0x00, 0x00, 0x00, 0x3c, 0xfe, 0xff, 0xff, 0x08, 0x00, 0x00, 0x00,
  0x2c, 0x00, 0x00, 0x00, 0x09, 0x00, 0x00, 0x00, 0xe5, 0xf1, 0xa4, 0x37,
  0x60, 0x13, 0x11, 0x38, 0xd2, 0xa6, 0xa7, 0x37, 0x92, 0x48, 0x7e, 0x37,
  0xaa, 0xff, 0xf8, 0x37, 0x1f, 0x6e, 0xe8, 0x37, 0x11, 0x8f, 0x26, 0x38,
  0x9c, 0x73, 0x8a, 0x37, 0x29, 0x9d, 0x8c, 0x37, 0x09, 0x00, 0x00, 0x00,
  0x00, 0x00, 0x00, 0x00, 0x00, 0x00, 0x00, 0x00, 0x00, 0x00, 0x00, 0x00,
  0x00, 0x00, 0x00, 0x00, 0x00, 0x00, 0x00, 0x00, 0x00, 0x00, 0x00, 0x00,
  0x00, 0x00, 0x00, 0x00, 0x00, 0x00, 0x00, 0x00, 0x00, 0x00, 0x00, 0x00,
  0x00, 0x00, 0x00, 0x00, 0x00, 0x00, 0x00, 0x00, 0x00, 0x00, 0x00, 0x00,
  0x00, 0x00, 0x00, 0x00, 0x00, 0x00, 0x00, 0x00, 0x00, 0x00, 0x00, 0x00,
  0x00, 0x00, 0x00, 0x00, 0x00, 0x00, 0x00, 0x00, 0x00, 0x00, 0x00, 0x00,
  0x00, 0x00, 0x00, 0x00, 0x2e, 0xfe, 0xff, 0xff, 0x04, 0x00, 0x00, 0x00,
  0xe1, 0x00, 0x00, 0x00, 0x35, 0x2a, 0x1c, 0x8b, 0xb9, 0xde, 0x0e, 0x7f,
  0x28, 0xd8, 0x0d, 0x08, 0x33, 0x4a, 0xd3, 0xf8, 0xd0, 0x26, 0x36, 0x2e,
  0x1d, 0x09, 0x05, 0x2a, 0x34, 0x21, 0x1b, 0x19, 0xea, 0xac, 0x1e, 0x30,
  0x00, 0xd7, 0xe7, 0x1d, 0x4f, 0xee, 0x81, 0xe3, 0x2f, 0x19, 0x00, 0xbf,
  0xe5, 0x25, 0x1d, 0xf3, 0xf7, 0xe6, 0x3a, 0xb4, 0x98, 0xca, 0x04, 0xe7,
  0x9b, 0xec, 0x2b, 0x54, 0x03, 0xd6, 0x63, 0x77, 0x45, 0x38, 0x4f, 0x42,
  0xe6, 0xb3, 0x37, 0x0c, 0xa7, 0x81, 0xc1, 0xba, 0xa0, 0xfe, 0x5e, 0x60,
  0x81, 0xc8, 0xf1, 0x6f, 0x28, 0xfb, 0xfb, 0xc5, 0x50, 0x4a, 0xbd, 0xb7,
  0xb4, 0x28, 0x46, 0xf9, 0xe4, 0x11, 0x24, 0x6b, 0x32, 0x0f, 0xf9, 0x0d,
  0xfd, 0x15, 0x38, 0x4e, 0x47, 0x3a, 0xea, 0x1d, 0x3e, 0x21, 0x28, 0x81,
  0xc5, 0xd2, 0xfd, 0x03, 0xc4, 0xaf, 0x9f, 0xca, 0xc3, 0xf8, 0x01, 0xfb,
  0xbb, 0xca, 0xd0, 0xa2, 0x81, 0xb3, 0xde, 0xe3, 0xce, 0x0e, 0x3a, 0x1e,
  0x37, 0x2d, 0x3d, 0x2c, 0x49, 0x27, 0x37, 0x27, 0x0f, 0x1d, 0x08, 0xea,
  0x81, 0xf2, 0x31, 0xea, 0xb0, 0xb7, 0x11, 0x3c, 0x8f, 0xdd, 0xf2, 0x16,
  0x2d, 0x9c, 0x03, 0xf4, 0x16, 0x21, 0xb9, 0xe7, 0xf8, 0xf1, 0x1c, 0x96,
  0xd4, 0xf9, 0x66, 0x3e, 0x86, 0x1f, 0x46, 0x7f, 0xe1, 0xd1, 0x17, 0x5b,
  0x5a, 0xb7, 0x10, 0x0f, 0x33, 0x25, 0xcd, 0x1e, 0x34, 0x23, 0x32, 0xb4,
  0xfd, 0x3c, 0xe3, 0x91, 0xc3, 0x1c, 0x66, 0x30, 0x90, 0xd9, 0xa7, 0x1e,
  0x72, 0x45, 0x7f, 0x22, 0x26, 0xc0, 0x30, 0x7f, 0x37, 0xe1, 0x92, 0x82,
  0x87, 0x00, 0x00, 0x00, 0x02, 0xff, 0xff, 0xff, 0x00, 0x00, 0x00, 0x09,
  0x10, 0x00, 0x00, 0x00, 0x03, 0x00, 0x00, 0x00, 0x1c, 0x00, 0x00, 0x00,
  0x48, 0x00, 0x00, 0x00, 0x04, 0x00, 0x00, 0x00, 0x09, 0x00, 0x00, 0x00,
  0x05, 0x00, 0x00, 0x00, 0x05, 0x00, 0x00, 0x00, 0x01, 0x00, 0x00, 0x00,
  0x1c, 0x00, 0x00, 0x00, 0x73, 0x65, 0x71, 0x75, 0x65, 0x6e, 0x74, 0x69,
  0x61, 0x6c, 0x5f, 0x32, 0x2f, 0x63, 0x6f, 0x6e, 0x76, 0x32, 0x64, 0x5f,
  0x32, 0x2f, 0x43, 0x6f, 0x6e, 0x76, 0x32, 0x44, 0x00, 0x00, 0x00, 0x00,
  0x0c, 0x00, 0x0c, 0x00, 0x00, 0x00, 0x00, 0x00, 0x04, 0x00, 0x08, 0x00,
  0x0c, 0x00, 0x00, 0x00, 0x08, 0x00, 0x00, 0x00, 0x2c, 0x00, 0x00, 0x00,
  0x09, 0x00, 0x00, 0x00, 0xf2, 0x4c, 0xa4, 0x3b, 0x4c, 0x82, 0x10, 0x3c,
  0x2b, 0xff, 0xa6, 0x3b, 0x48, 0x4a, 0x7d, 0x3b, 0xa9, 0x06, 0xf8, 0x3b,
  0xb0, 0x85, 0xe7, 0x3b, 0x81, 0xe8, 0x25, 0x3c, 0x28, 0xe9, 0x89, 0x3b,
  0x8b, 0x10, 0x8c, 0x3b, 0x09, 0x00, 0x00, 0x00, 0x00, 0x00, 0x00, 0x00,
  0x00, 0x00, 0x00, 0x00, 0x00, 0x00, 0x00, 0x00, 0x00, 0x00, 0x00, 0x00,
  0x00, 0x00, 0x00, 0x00, 0x00, 0x00, 0x00, 0x00, 0x00, 0x00, 0x00, 0x00,
  0x00, 0x00, 0x00, 0x00, 0x00, 0x00, 0x00, 0x00, 0x00, 0x00, 0x00, 0x00,
  0x00, 0x00, 0x00, 0x00, 0x00, 0x00, 0x00, 0x00, 0x00, 0x00, 0x00, 0x00,
  0x00, 0x00, 0x00, 0x00, 0x00, 0x00, 0x00, 0x00, 0x00, 0x00, 0x00, 0x00,
  0x00, 0x00, 0x00, 0x00, 0x00, 0x00, 0x00, 0x00, 0x00, 0x00, 0x00, 0x00,
  0x00, 0x00, 0x06, 0x00, 0x08, 0x00, 0x04, 0x00, 0x06, 0x00, 0x00, 0x00,
  0x04, 0x00, 0x00, 0x00, 0x08, 0x00, 0x00, 0x00, 0xff, 0xff, 0xff, 0xff,
  0x51, 0x00, 0x00, 0x00, 0x00, 0x00, 0x0e, 0x00, 0x18, 0x00, 0x08, 0x00,
  0x07, 0x00, 0x0c, 0x00, 0x10, 0x00, 0x14, 0x00, 0x0e, 0x00, 0x00, 0x00,
  0x00, 0x00, 0x00, 0x02, 0x10, 0x00, 0x00, 0x00, 0x02, 0x00, 0x00, 0x00,
  0x10, 0x00, 0x00, 0x00, 0x30, 0x00, 0x00, 0x00, 0x01, 0x00, 0x00, 0x00,
  0x02, 0x00, 0x00, 0x00, 0x1c, 0x00, 0x00, 0x00, 0x73, 0x65, 0x71, 0x75,
  0x65, 0x6e, 0x74, 0x69, 0x61, 0x6c, 0x5f, 0x32, 0x2f, 0x66, 0x6c, 0x61,
  0x74, 0x74, 0x65, 0x6e, 0x5f, 0x31, 0x2f, 0x43, 0x6f, 0x6e, 0x73, 0x74,
  0x00, 0x00, 0x00, 0x00, 0x7c, 0xff, 0xff, 0xff, 0x14, 0x00, 0x18, 0x00,
  0x04, 0x00, 0x00, 0x00, 0x08, 0x00, 0x0c, 0x00, 0x10, 0x00, 0x00, 0x00,
  0x00, 0x00, 0x14, 0x00, 0x14, 0x00, 0x00, 0x00, 0x14, 0x00, 0x00, 0x00,
  0x01, 0x00, 0x00, 0x00, 0x20, 0x00, 0x00, 0x00, 0x58, 0x00, 0x00, 0x00,
  0x40, 0x00, 0x00, 0x00, 0x04, 0x00, 0x00, 0x00, 0x01, 0x00, 0x00, 0x00,
  0x1c, 0x00, 0x00, 0x00, 0x1c, 0x00, 0x00, 0x00, 0x01, 0x00, 0x00, 0x00,
  0x20, 0x00, 0x00, 0x00, 0x73, 0x65, 0x72, 0x76, 0x69, 0x6e, 0x67, 0x5f,
  0x64, 0x65, 0x66, 0x61, 0x75, 0x6c, 0x74, 0x5f, 0x63, 0x6f, 0x6e, 0x76,
  0x32, 0x64, 0x5f, 0x32, 0x5f, 0x69, 0x6e, 0x70, 0x75, 0x74, 0x3a, 0x30,
  0x00, 0x00, 0x00, 0x00, 0x04, 0x00, 0x00, 0x00, 0xff, 0xff, 0xff, 0xff,
  0x1c, 0x00, 0x00, 0x00, 0x1c, 0x00, 0x00, 0x00, 0x01, 0x00, 0x00, 0x00,
  0xfc, 0xff, 0xff, 0xff, 0x04, 0x00, 0x04, 0x00, 0x04, 0x00, 0x00, 0x00
};
unsigned int model_data_tflite_len = 7104;
